{
  "version": "1.0",
  "truncation": null,
  "padding": null,
  "added_tokens": [
    {
      "id": 0,
      "content": "[PAD]",
      "single_word": false,
      "lstrip": false,
      "rstrip": false,
      "normalized": false,
      "special": true
    },
    {
      "id": 1,
      "content": "[NAN]",
      "single_word": false,
      "lstrip": false,
      "rstrip": false,
      "normalized": false,
      "special": true
    },
    {
      "id": 2,
      "content": "[SEP]",
      "single_word": false,
      "lstrip": false,
      "rstrip": false,
      "normalized": false,
      "special": true
    },
    {
      "id": 3,
      "content": "[SUBSEQ]",
      "single_word": false,
      "lstrip": false,
      "rstrip": false,
      "normalized": false,
      "special": true
    },
    {
      "id": 4,
      "content": "[SUB]",
      "single_word": false,
      "lstrip": false,
      "rstrip": false,
      "normalized": false,
      "special": true
    },
    {
      "id": 5,
      "content": "[REPEAT]",
      "single_word": false,
      "lstrip": false,
      "rstrip": false,
      "normalized": false,
      "special": true
    },
    {
      "id": 6,
      "content": "[UNK]",
      "single_word": false,
      "lstrip": false,
      "rstrip": false,
      "normalized": false,
      "special": true
    },
    {
      "id": 7,
      "content": "[AND]",
      "single_word": false,
      "lstrip": false,
      "rstrip": false,
      "normalized": false,
      "special": true
    }
  ],
  "normalizer": {
    "type": "Sequence",
    "normalizers": [
      {
        "type": "NFD"
      },
      {
        "type": "Lowercase"
      },
      {
        "type": "StripAccents"
      },
      {
        "type": "Strip",
        "strip_left": true,
        "strip_right": true
      }
    ]
  },
  "pre_tokenizer": {
    "type": "Sequence",
    "pretokenizers": [
      {
        "type": "Split",
        "pattern": {
          "String": "[SUBSEQ]"
        },
        "behavior": "Isolated",
        "invert": false
      },
      {
        "type": "Split",
        "pattern": {
          "String": "[SUB]"
        },
        "behavior": "Isolated",
        "invert": false
      },
      {
        "type": "Split",
        "pattern": {
          "String": "[SEP]"
        },
        "behavior": "Isolated",
        "invert": false
      },
      {
        "type": "Whitespace"
      },
      {
        "type": "Split",
        "pattern": {
          "String": "[ \\t]"
        },
        "behavior": "Isolated",
        "invert": false
      }
    ]
  },
  "post_processor": null,
  "decoder": {
    "type": "WordPiece",
    "prefix": "##",
    "cleanup": true
  },
  "model": {
    "type": "WordPiece",
    "unk_token": "[UNK]",
    "continuing_subword_prefix": "##",
    "max_input_chars_per_word": 100,
    "vocab": {
      "[PAD]": 0,
      "[NAN]": 1,
      "[SEP]": 2,
      "[SUBSEQ]": 3,
      "[SUB]": 4,
      "[REPEAT]": 5,
      "[UNK]": 6,
      "[AND]": 7,
      "!": 8,
      "\"": 9,
      "#": 10,
      "&": 11,
      "(": 12,
      ")": 13,
      "*": 14,
      "-": 15,
      ".": 16,
      "0": 17,
      "1": 18,
      "2": 19,
      "3": 20,
      "4": 21,
      "5": 22,
      "6": 23,
      "7": 24,
      "8": 25,
      "9": 26,
      ":": 27,
      "<": 28,
      "=": 29,
      ">": 30,
      "@": 31,
      "[": 32,
      "]": 33,
      "a": 34,
      "b": 35,
      "c": 36,
      "d": 37,
      "e": 38,
      "f": 39,
      "g": 40,
      "h": 41,
      "i": 42,
      "j": 43,
      "k": 44,
      "l": 45,
      "m": 46,
      "n": 47,
      "o": 48,
      "p": 49,
      "q": 50,
      "r": 51,
      "s": 52,
      "t": 53,
      "u": 54,
      "v": 55,
      "w": 56,
      "x": 57,
      "y": 58,
      "z": 59,
      "¤": 60,
      "°": 61,
      "´": 62,
      "¶": 63,
      "¼": 64,
      "�": 65,
      "##i": 66,
      "##r": 67,
      "##8": 68,
      "##0": 69,
      "##o": 70,
      "##n": 71,
      "##e": 72,
      "##l": 73,
      "##b": 74,
      "##a": 75,
      "##d": 76,
      "##c": 77,
      "##k": 78,
      "##s": 79,
      "##p": 80,
      "##v": 81,
      "##u": 82,
      "##2": 83,
      "##5": 84,
      "##m": 85,
      "##g": 86,
      "##f": 87,
      "##4": 88,
      "##6": 89,
      "##w": 90,
      "##t": 91,
      "##3": 92,
      "##1": 93,
      "##.": 94,
      "##q": 95,
      "##7": 96,
      "##9": 97,
      "##y": 98,
      "##z": 99,
      "##h": 100,
      "##j": 101,
      "##x": 102,
      "##�": 103,
      "##°": 104,
      "##´": 105,
      "##!": 106,
      "##[": 107,
      "##-": 108,
      "##\"": 109,
      "##se": 110,
      "##seq": 111,
      "su": 112,
      "sub": 113,
      "subseq": 114,
      "ad": 115,
      "adj": 116,
      "##an": 117,
      "nan": 118,
      "##ro": 119,
      "se": 120,
      "sep": 121,
      "##ad": 122,
      "he": 123,
      "##re": 124,
      "##en": 125,
      "adjf": 126,
      "##co": 127,
      "##men": 128,
      "##el": 129,
      "##ra": 130,
      "adjfre": 131,
      "##na": 132,
      "ne": 133,
      "##rona": 134,
      "crona": 135,
      "##ol": 136,
      "head": 137,
      "##st": 138,
      "sp": 139,
      "##ut": 140,
      "##is": 141,
      "##nk": 142,
      "##in": 143,
      "##ow": 144,
      "unk": 145,
      "##now": 146,
      "unknow": 147,
      "unknown": 148,
      "##it": 149,
      "##al": 150,
      "ab": 151,
      "abd": 152,
      "abdo": 153,
      "abdomen": 154,
      "##ine": 155,
      "##ns": 156,
      "##ust": 157,
      "##vis": 158,
      "##elvis": 159,
      "adjust": 160,
      "adjustseq": 161,
      "bo": 162,
      "neu": 163,
      "vi": 164,
      "##da": 165,
      "neuro": 166,
      "##ig": 167,
      "##ie": 168,
      "##er": 169,
      "##rad": 170,
      "##fit": 171,
      "##di": 172,
      "##il": 173,
      "adjco": 174,
      "adjcoil": 175,
      "neurorad": 176,
      "adjdi": 177,
      "adjdico": 178,
      "bo1": 179,
      "##sseq": 180,
      "##sens": 181,
      "adjcoilsens": 182,
      "sie": 183,
      "siemen": 184,
      "siemensseq": 185,
      "vida": 186,
      "aut": 187,
      "##oal": 188,
      "autoal": 189,
      "autoalig": 190,
      "##ma": 191,
      "tse": 192,
      "tra": 193,
      "##sc": 194,
      "t1": 195,
      "pelvis": 196,
      "##ar": 197,
      "##ul": 198,
      "##hol": 199,
      "whol": 200,
      "whole": 201,
      "##dy": 202,
      "spine": 203,
      "##ola": 204,
      "sola": 205,
      "##pelvis": 206,
      "abdomenpelvis": 207,
      "##cout": 208,
      "##og": 209,
      "##iol": 210,
      "neuroradiol": 211,
      "##ogy": 212,
      "neuroradiology": 213,
      "##iv": 214,
      "##tra": 215,
      "adjtra": 216,
      "##scul": 217,
      "##map": 218,
      "bc": 219,
      "adjfreseq": 220,
      "##et": 221,
      "liv": 222,
      "liver": 223,
      "sp1": 224,
      "he1": 225,
      "##os": 226,
      "##era": 227,
      "aera": 228,
      "##iel": 229,
      "##bo": 230,
      "##body": 231,
      "wholebody": 232,
      "##ield": 233,
      "##ieldmap": 234,
      "adjfieldmap": 235,
      "st": 236,
      "ne1": 237,
      "t2": 238,
      "##kel": 239,
      "##etal": 240,
      "##or": 241,
      "mu": 242,
      "##sculos": 243,
      "##keletal": 244,
      "musculos": 245,
      "musculoskeletal": 246,
      "##nscout": 247,
      "autoalignscout": 248,
      "vidafit": 249,
      "di": 250,
      "##op": 251,
      "kop": 252,
      "kopf": 253,
      "ro": 254,
      "##utine": 255,
      "routine": 256,
      "##rea": 257,
      "##to": 258,
      "##art": 259,
      "heart": 260,
      "##mm": 261,
      "autoalign": 262,
      "fl": 263,
      "av": 264,
      "##anto": 265,
      "avanto": 266,
      "##be": 267,
      "##ws": 268,
      "avantofit": 269,
      "vibe": 270,
      "##anda": 271,
      "##andar": 272,
      "standar": 273,
      "standard": 274,
      "##on": 275,
      "sp2": 276,
      "nr": 277,
      "cor": 278,
      "dix": 279,
      "dixon": 280,
      "##sp": 281,
      "##2d": 282,
      "##ck": 283,
      "##at": 284,
      "##ris": 285,
      "pris": 286,
      "prisma": 287,
      "prismafit": 288,
      "##ic": 289,
      "##spine": 290,
      "rad": 291,
      "##vie": 292,
      "gen": 293,
      "##eric": 294,
      "##views": 295,
      "generic": 296,
      "genericviews": 297,
      "##ag": 298,
      "adjdicoseq": 299,
      "adjcoilsensseq": 300,
      "brea": 301,
      "breast": 302,
      "sag": 303,
      "neck": 304,
      "##pra": 305,
      "ne2": 306,
      "km": 307,
      "##ov": 308,
      "pan": 309,
      "##reas": 310,
      "##creas": 311,
      "pancreas": 312,
      "fit": 313,
      "mpra": 314,
      "4mm": 315,
      "body": 316,
      "he3": 317,
      "##ss": 318,
      "##ment": 319,
      "##nment": 320,
      "##ignment": 321,
      "mprass": 322,
      "mprassignment": 323,
      "##ff": 324,
      "diff": 325,
      "tr": 326,
      "##3d": 327,
      "adjtra2d": 328,
      "##ast": 329,
      "fl3d": 330,
      "##ll": 331,
      "##1d": 332,
      "adjtra1d": 333,
      "##ct": 334,
      "##ch": 335,
      "all": 336,
      "##ardi": 337,
      "allrad": 338,
      "cardi": 339,
      "##ascul": 340,
      "##ovascul": 341,
      "cardiovascul": 342,
      "cardiovascular": 343,
      "lspine": 344,
      "##ect": 345,
      "##ir": 346,
      "th": 347,
      "scout": 348,
      "##ng": 349,
      "sp3": 350,
      "be": 351,
      "fs": 352,
      "pro": 353,
      "##ung": 354,
      "adjfieldmapseq": 355,
      "##sch": 356,
      "##us": 357,
      "ep": 358,
      "sp4": 359,
      "fla": 360,
      "##um": 361,
      "3mm": 362,
      "bra": 363,
      "po": 364,
      "##ne": 365,
      "bo2": 366,
      "##ce": 367,
      "post": 368,
      "##he": 369,
      "beat": 370,
      "brain": 371,
      "sch": 372,
      "##te": 373,
      "##fi": 374,
      "ws": 375,
      "##00": 376,
      "tru": 377,
      "trufi": 378,
      "##igh": 379,
      "thigh": 380,
      "for": 381,
      "##ace": 382,
      "cspine": 383,
      "le": 384,
      "##rog": 385,
      "rect": 386,
      "rectum": 387,
      "hast": 388,
      "haste": 389,
      "##rit": 390,
      "##ritte": 391,
      "##schung": 392,
      "forschung": 393,
      "##fl": 394,
      "adjcoilp": 395,
      "##der": 396,
      "ep2d": 397,
      "bo3": 398,
      "che": 399,
      "chest": 400,
      "adjtraseq": 401,
      "lo": 402,
      "loc": 403,
      "tfl": 404,
      "##rb": 405,
      "sh": 406,
      "##le": 407,
      "##ali": 408,
      "gre": 409,
      "##aliz": 410,
      "##alizer": 411,
      "localizer": 412,
      "gan": 413,
      "ganz": 414,
      "uf": 415,
      "##stat": 416,
      "prostat": 417,
      "ufk": 418,
      "kne": 419,
      "knee": 420,
      "##sh": 421,
      "prostate": 422,
      "bl": 423,
      "ganze": 424,
      "##rz": 425,
      "ma": 426,
      "2d": 427,
      "face": 428,
      "adjcoilpos": 429,
      "schritte": 430,
      "##yn": 431,
      "flash": 432,
      "dyn": 433,
      "##ros": 434,
      "##ase": 435,
      "sho": 436,
      "##ulder": 437,
      "shoulder": 438,
      "ku": 439,
      "met": 440,
      "kurz": 441,
      "##astase": 442,
      "metastase": 443,
      "metastasen": 444,
      "flair": 445,
      "cine": 446,
      "##ing": 447,
      "pa": 448,
      "lws": 449,
      "orb": 450,
      "orbit": 451,
      "b1": 452,
      "ms": 453,
      "b1map": 454,
      "leg": 455,
      "##nd": 456,
      "urog": 457,
      "##enit": 458,
      "urogenit": 459,
      "urogenital": 460,
      "nat": 461,
      "nativ": 462,
      "##py": 463,
      "##copy": 464,
      "spect": 465,
      "##roscopy": 466,
      "spectroscopy": 467,
      "##ot": 468,
      "##io": 469,
      "sp5": 470,
      "##erus": 471,
      "br": 472,
      "trig": 473,
      "##es": 474,
      "stir": 475,
      "bh": 476,
      "hws": 477,
      "map": 478,
      "ka": 479,
      "##ent": 480,
      "##ora": 481,
      "thora": 482,
      "thorax": 483,
      "##fov": 484,
      "##ip": 485,
      "##mit": 486,
      "bol": 487,
      "##id": 488,
      "##scout": 489,
      "orbita": 490,
      "ank": 491,
      "ankle": 492,
      "bolus": 493,
      "fo": 494,
      "foot": 495,
      "adjtra2dseq": 496,
      "ex": 497,
      "##prog": 498,
      "kurzprog": 499,
      "##as": 500,
      "adjtra1dseq": 501,
      "ext": 502,
      "##remit": 503,
      "extremit": 504,
      "##c1": 505,
      "##0fov": 506,
      "##gre": 507,
      "gl": 508,
      "adjgre": 509,
      "##tent": 510,
      "supra": 511,
      "##iell": 512,
      "##oriell": 513,
      "glio": 514,
      "##tentoriell": 515,
      "supratentoriell": 516,
      "hip": 517,
      "##ade": 518,
      "and": 519,
      "2mm": 520,
      "3d": 521,
      "ut": 522,
      "uterus": 523,
      "gk": 524,
      "s1": 525,
      "to": 526,
      "##kol": 527,
      "##tokol": 528,
      "##ramm": 529,
      "fl2d": 530,
      "kid": 531,
      "##ion": 532,
      "##ney": 533,
      "kidney": 534,
      "is": 535,
      "iso": 536,
      "gliom": 537,
      "ti": 538,
      "##asis": 539,
      "##ms": 540,
      "##ke": 541,
      "bws": 542,
      "stro": 543,
      "stroke": 544,
      "protokol": 545,
      "protokoll": 546,
      "ret": 547,
      "retro": 548,
      "fa": 549,
      "space": 550,
      "sms": 551,
      "tir": 552,
      "aal": 553,
      "aalscout": 554,
      "aa": 555,
      "tirm": 556,
      "##and": 557,
      "##head": 558,
      "aahead": 559,
      "pd": 560,
      "kin": 561,
      "##gramm": 562,
      "programm": 563,
      "##bl": 564,
      "extremity": 565,
      "##schritte": 566,
      "res": 567,
      "800": 568,
      "t1map": 569,
      "resol": 570,
      "##ve": 571,
      "resolve": 572,
      "ak": 573,
      "kinder": 574,
      "##ern": 575,
      "##ist": 576,
      "]-": 577,
      "ti9": 578,
      "ti900": 579,
      "drb": 580,
      "##adel": 581,
      "26": 582,
      "260fov": 583,
      "##osseq": 584,
      "adjcoilposseq": 585,
      "##ab": 586,
      "hand": 587,
      "##ge": 588,
      "mit": 589,
      "s2": 590,
      "##cken": 591,
      "basis": 592,
      "becken": 593,
      "##ort": 594,
      "##lan": 595,
      "ca": 596,
      "stern": 597,
      "##chan": 598,
      "machan": 599,
      "machann": 600,
      "mprage": 601,
      "aort": 602,
      "cb": 603,
      "sp6": 604,
      "diab": 605,
      "care": 606,
      "aorta": 607,
      "##ell": 608,
      "hc1": 609,
      "##000": 610,
      "##pos": 611,
      "##ition": 612,
      "spinepos": 613,
      "##itioning": 614,
      "spinepositioning": 615,
      "schadel": 616,
      "cal": 617,
      "calf": 618,
      "18": 619,
      "18k": 620,
      "nc1": 621,
      "fbl": 622,
      "fblade": 623,
      "plan": 624,
      "##sel": 625,
      "##nell": 626,
      "schnell": 627,
      "hum": 628,
      "humerus": 629,
      "ves": 630,
      "vessel": 631,
      "##50": 632,
      "planung": 633,
      "s3": 634,
      "wr": 635,
      "wrist": 636,
      "spc": 637,
      "p2": 638,
      "blade": 639,
      "lung": 640,
      "ot": 641,
      "1000": 642,
      "##20": 643,
      "ple": 644,
      "##xus": 645,
      "plexus": 646,
      "##her": 647,
      "gra": 648,
      "##scan": 649,
      "##ik": 650,
      "4scan": 651,
      "sv": 652,
      "##ping": 653,
      "3schritte": 654,
      "##ber": 655,
      "svs": 656,
      "##ial": 657,
      "28": 658,
      "280fov": 659,
      "grasp": 660,
      "sha": 661,
      "stu": 662,
      "dz": 663,
      "##ter": 664,
      "dzd": 665,
      "trace": 666,
      "pa1": 667,
      "##nal": 668,
      "mo": 669,
      "##ya": 670,
      "moya": 671,
      "##aten": 672,
      "extremitaten": 673,
      "##om": 674,
      "other": 675,
      "ce": 676,
      "b0": 677,
      "##rm": 678,
      "li": 679,
      "spinescout": 680,
      "un": 681,
      "ap": 682,
      "arm": 683,
      "stag": 684,
      "staging": 685,
      "hw": 686,
      "##ustik": 687,
      "akustik": 688,
      "akustikus": 689,
      "##inal": 690,
      "leber": 691,
      "sp7": 692,
      "tspine": 693,
      "##neck": 694,
      "headneck": 695,
      "b50": 696,
      "p3": 697,
      "##ti": 698,
      "re": 699,
      "und": 700,
      "adc": 701,
      "##ac": 702,
      "ang": 703,
      "##vi": 704,
      "he4": 705,
      "##tere": 706,
      "untere": 707,
      "pa6": 708,
      "hw1": 709,
      "##dien": 710,
      "studien": 711,
      "##vot": 712,
      "500": 713,
      "in": 714,
      "1mm": 715,
      "hy": 716,
      "angio": 717,
      "##chial": 718,
      "brachial": 719,
      "brachialis": 720,
      "ure": 721,
      "ureter": 722,
      "nrad": 723,
      "##ral": 724,
      "akn": 725,
      "pa5": 726,
      "4k": 727,
      "##basis": 728,
      "schadelbasis": 729,
      "##40": 730,
      "adjgreseq": 731,
      "##osac": 732,
      "##osacral": 733,
      "el": 734,
      "##bow": 735,
      "elbow": 736,
      "15": 737,
      "pa3": 738,
      "##erf": 739,
      "12": 740,
      "pet": 741,
      "petros": 742,
      "2schritte": 743,
      "sp8": 744,
      "15k": 745,
      "hc": 746,
      "mp": 747,
      "hal": 748,
      "s10": 749,
      "s5": 750,
      "cust": 751,
      "##erseq": 752,
      "##omerseq": 753,
      "customerseq": 754,
      "my": 755,
      "220": 756,
      "ax": 757,
      "##ep": 758,
      "hals": 759,
      "kurzprogramm": 760,
      "##tion": 761,
      "440": 762,
      "##itis": 763,
      "s4": 764,
      "sa": 765,
      "##eps": 766,
      "hyp": 767,
      "##yse": 768,
      "##hyse": 769,
      "##ophyse": 770,
      "hypophyse": 771,
      "flow": 772,
      "s6": 773,
      "t1mapping": 774,
      "2k": 775,
      "spinal": 776,
      "##sl": 777,
      "##tera": 778,
      "##de": 779,
      "##me": 780,
      "##deg": 781,
      "neurodeg": 782,
      "perf": 783,
      "##ong": 784,
      "##stra": 785,
      "long": 786,
      "##ive": 787,
      "##ctive": 788,
      "intera": 789,
      "interactive": 790,
      "##orp": 791,
      "op": 792,
      "herz": 793,
      "pen": 794,
      "tof": 795,
      "penis": 796,
      "##3mm": 797,
      "##am": 798,
      "##ts": 799,
      "de": 800,
      "mapping": 801,
      "ges": 802,
      "epil": 803,
      "glioma": 804,
      "420": 805,
      "cer": 806,
      "lum": 807,
      "##vix": 808,
      "cervix": 809,
      "lumb": 810,
      "##real": 811,
      "##time": 812,
      "interactivereal": 813,
      "interactiverealtime": 814,
      "##4mm": 815,
      "##int": 816,
      "fast": 817,
      "standard4mm": 818,
      "basis3mm": 819,
      "##su": 820,
      "##epsie": 821,
      "epilepsie": 822,
      "##oint": 823,
      "he2": 824,
      "pa2": 825,
      "mpr": 826,
      "pa4": 827,
      "mr": 828,
      "cs": 829,
      "##enera": 830,
      "neurodegenera": 831,
      "neurodegeneration": 832,
      "bu": 833,
      "busch": 834,
      "##ett": 835,
      "##isp": 836,
      "5mm": 837,
      "ile": 838,
      "ileosacral": 839,
      "hc3": 840,
      "##lung": 841,
      "##hlung": 842,
      "bestra": 843,
      "bestrahlung": 844,
      "p4": 845,
      "ac": 846,
      "lvot": 847,
      "50": 848,
      "##we": 849,
      "fisp": 850,
      "zer": 851,
      "##weck": 852,
      "zerweck": 853,
      "dti": 854,
      "war": 855,
      "warp": 856,
      "rvot": 857,
      "##korp": 858,
      "ganzkorp": 859,
      "ganzkorper": 860,
      "hr": 861,
      "asl": 862,
      "rnd": 863,
      "fq": 864,
      "lif": 865,
      "bi": 866,
      "joint": 867,
      "ufl": 868,
      "dl": 869,
      "##ling": 870,
      "##ug": 871,
      "saug": 872,
      "saugling": 873,
      "ps": 874,
      "psir": 875,
      "db": 876,
      "##view": 877,
      "os": 878,
      "##enkel": 879,
      "gesam": 880,
      "##schenkel": 881,
      "##ice": 882,
      "##av": 883,
      "##elom": 884,
      "myelom": 885,
      "gesamt": 886,
      "final": 887,
      "hsp": 888,
      "buschi": 889,
      "ha": 890,
      "sell": 891,
      "ph": 892,
      "nn": 893,
      "nnh": 894,
      "##ph": 895,
      "##ich": 896,
      "##wat": 897,
      "adjwat": 898,
      "##sup": 899,
      "adjwatsup": 900,
      "##tis": 901,
      "set": 902,
      "sella": 903,
      "gws": 904,
      "##ec": 905,
      "##ok": 906,
      "mrf": 907,
      "##nks": 908,
      "##pro": 909,
      "tm": 910,
      "tmj": 911,
      "##vibe": 912,
      "##ditis": 913,
      "##arditis": 914,
      "myok": 915,
      "myokarditis": 916,
      "kle": 917,
      "ren": 918,
      "##cle": 919,
      "##ycle": 920,
      "lifec": 921,
      "renal": 922,
      "lifecycle": 923,
      "links": 924,
      "osg": 925,
      "##mr": 926,
      "##die": 927,
      "studie": 928,
      "lk": 929,
      "##ver": 930,
      "##60": 931,
      "##ock": 932,
      "over": 933,
      "##ld": 934,
      "overview": 935,
      "native": 936,
      "schock": 937,
      "##mri": 938,
      "vas": 939,
      "##oo": 940,
      "##lice": 941,
      "##kul": 942,
      "vaskul": 943,
      "vaskulitis": 944,
      "##qu": 945,
      "acn": 946,
      "mul": 947,
      "ej": 948,
      "eja": 949,
      "gr": 950,
      "##chts": 951,
      "##man": 952,
      "##shman": 953,
      "deshman": 954,
      "deshmane": 955,
      "##rs": 956,
      "##tislice": 957,
      "multislice": 958,
      "20": 959,
      "##enk": 960,
      "te": 961,
      "tw": 962,
      "twist": 963,
      "spe": 964,
      "##br": 965,
      "##pp": 966,
      "##mul": 967,
      "1200": 968,
      "1200r": 969,
      "t2map": 970,
      "2bl": 971,
      "rechts": 972,
      "zoo": 973,
      "zoomit": 974,
      "pre": 975,
      "##sfov": 976,
      "##inesfov": 977,
      "kleinesfov": 978,
      "fmri": 979,
      "##zial": 980,
      "spezial": 981,
      "crs": 982,
      "##alis": 983,
      "mld": 984,
      "##osacralis": 985,
      "lumbalis": 986,
      "lumbosacralis": 987,
      "phle": 988,
      "ate": 989,
      "atem": 990,
      "star": 991,
      "prostata": 992,
      "true": 993,
      "starvibe": 994,
      "##ark": 995,
      "##usion": 996,
      "##lin": 997,
      "kn": 998,
      "##tokolle": 999,
      "##protokolle": 1000,
      "genfi": 1001,
      "fid": 1002,
      "knie": 1003,
      "##ash": 1004,
      "tflash": 1005,
      "ots": 1006,
      "obe": 1007,
      "obere": 1008,
      "liqu": 1009,
      "liquor": 1010,
      "fra": 1011,
      "##uenk": 1012,
      "##linik": 1013,
      "frauenk": 1014,
      "frauenklinik": 1015,
      "cest": 1016,
      "pat": 1017,
      "t2st": 1018,
      "ff": 1019,
      "2br": 1020,
      "sspine": 1021,
      "##vent": 1022,
      "rest": 1023,
      "dess": 1024,
      "##wi": 1025,
      "hea": 1026,
      "hep": 1027,
      "40": 1028,
      "abb": 1029,
      "##flu": 1030,
      "##tssch": 1031,
      "##ichtssch": 1032,
      "ober": 1033,
      "oberschenkel": 1034,
      "##ichtsschadel": 1035,
      "t2stern": 1036,
      "s7": 1037,
      "##ful": 1038,
      "preful": 1039,
      "##ient": 1040,
      "patient": 1041,
      "patienten": 1042,
      "swi": 1043,
      "##herz": 1044,
      "phlebo": 1045,
      "liquorflu": 1046,
      "##che": 1047,
      "##ress": 1048,
      "spot": 1049,
      "wb": 1050,
      "tran": 1051,
      "##hc": 1052,
      "nav": 1053,
      "obl": 1054,
      "##cas": 1055,
      "##casl": 1056,
      "liquorfluss": 1057,
      "##go": 1058,
      "##andgo": 1059,
      "setandgo": 1060,
      "##ser": 1061,
      "##ions": 1062,
      "wip": 1063,
      "##ations": 1064,
      "m1": 1065,
      "64": 1066,
      "high": 1067,
      "nhc": 1068,
      "##user": 1069,
      "fasting": 1070,
      "hauser": 1071,
      "hc5": 1072,
      "##imul": 1073,
      "stimul": 1074,
      "38": 1075,
      "##ur": 1076,
      "con": 1077,
      "dark": 1078,
      "384": 1079,
      "loci": 1080,
      "##ationsprotokolle": 1081,
      "stimulationsprotokolle": 1082,
      "gesichtsschadel": 1083,
      "v1": 1084,
      "##25": 1085,
      "bw": 1086,
      "ir": 1087,
      "##kt": 1088,
      "##mma": 1089,
      "mamma": 1090,
      "##em": 1091,
      "##lant": 1092,
      ".[": 1093,
      "ver": 1094,
      "##suche": 1095,
      "versuche": 1096,
      "##70": 1097,
      "##kreas": 1098,
      "pankreas": 1099,
      "b1000": 1100,
      "cl": 1101,
      "col": 1102,
      "colon": 1103,
      "##bh": 1104,
      "dir": 1105,
      "##air": 1106,
      "spair": 1107,
      "mbh": 1108,
      "fem": 1109,
      "sternum": 1110,
      "femur": 1111,
      "m170": 1112,
      "korp": 1113,
      "##erfett": 1114,
      "korperfett": 1115,
      "fett": 1116,
      "go": 1117,
      "11": 1118,
      "400": 1119,
      "wade": 1120,
      "##splant": 1121,
      "transplant": 1122,
      "##63": 1123,
      "ii": 1124,
      "##kon": 1125,
      "##steps": 1126,
      "fov": 1127,
      "##bra": 1128,
      "##ule": 1129,
      "##ional": 1130,
      "##ventional": 1131,
      "conventional": 1132,
      "##ogra": 1133,
      "##15": 1134,
      "rekt": 1135,
      "rektum": 1136,
      "4stra": 1137,
      "4strace": 1138,
      "##ick": 1139,
      "##terschenkel": 1140,
      "unterschenkel": 1141,
      "##iger": 1142,
      "saett": 1143,
      "bi7": 1144,
      "saettiger": 1145,
      "##uid": 1146,
      "fluid": 1147,
      "diffusion": 1148,
      "stn": 1149,
      "ti1": 1150,
      "uro": 1151,
      "ste": 1152,
      "##ba": 1153,
      "axial": 1154,
      "10": 1155,
      "steam": 1156,
      "##min": 1157,
      "3k": 1158,
      "lin": 1159,
      "##tel": 1160,
      "test": 1161,
      "bold": 1162,
      "rpp": 1163,
      "mpress": 1164,
      "rppcasl": 1165,
      "##uell": 1166,
      "##tuell": 1167,
      "aktuell": 1168,
      "hw2": 1169,
      "##dro": 1170,
      "##th": 1171,
      "hydro": 1172,
      "sara": 1173,
      "bestrahlungs": 1174,
      "ob": 1175,
      "##md": 1176,
      "adjmd": 1177,
      "##ron": 1178,
      "kind": 1179,
      "##ulter": 1180,
      "schulter": 1181,
      "mittel": 1182,
      "##avic": 1183,
      "clavic": 1184,
      "clavicle": 1185,
      "201": 1186,
      "s11": 1187,
      "grapp": 1188,
      "grappa": 1189,
      "30": 1190,
      "epi": 1191,
      "##icht": 1192,
      "buschba": 1193,
      "buschbach": 1194,
      "nie": 1195,
      "##alus": 1196,
      "##ceph": 1197,
      "hydroceph": 1198,
      "niere": 1199,
      "hydrocephalus": 1200,
      "nor": 1201,
      "norm": 1202,
      "csi": 1203,
      "##x0": 1204,
      "25": 1205,
      "cali": 1206,
      "##bration": 1207,
      "calibration": 1208,
      "bs": 1209,
      "sens": 1210,
      "##ining": 1211,
      "training": 1212,
      "40ms": 1213,
      "sensor": 1214,
      "shs": 1215,
      "bron": 1216,
      "##chus": 1217,
      "bronchus": 1218,
      "fing": 1219,
      "new": 1220,
      "finger": 1221,
      "##joint": 1222,
      "k15": 1223,
      "##x1": 1224,
      "##ina": 1225,
      "im": 1226,
      "l7": 1227,
      "fac": 1228,
      "obb": 1229,
      "vag": 1230,
      "vagina": 1231,
      "avm": 1232,
      "linus": 1233,
      "vor": 1234,
      "##fu": 1235,
      "vorfu": 1236,
      "3x0": 1237,
      "lac": 1238,
      "nist": 1239,
      "perfusion": 1240,
      "04": 1241,
      "hf": 1242,
      "lge": 1243,
      "300": 1244,
      "3s": 1245,
      "57": 1246,
      "9s": 1247,
      "inter": 1248,
      "40sl": 1249,
      "57s": 1250,
      "fov2": 1251,
      "shl": 1252,
      "250": 1253,
      "##phie": 1254,
      "##ographie": 1255,
      "ufs": 1256,
      "genfi3": 1257,
      "##fa": 1258,
      "nieren": 1259,
      "fov260": 1260,
      "hg": 1261,
      "ute": 1262,
      "##bel": 1263,
      "##ca": 1264,
      "##cca": 1265,
      "##roid": 1266,
      "sphe": 1267,
      "##becca": 1268,
      "rebecca": 1269,
      "##roids": 1270,
      "spheroids": 1271,
      "pace": 1272,
      "wir": 1273,
      "##aule": 1274,
      "##saule": 1275,
      "##belsaule": 1276,
      "wirbelsaule": 1277,
      "tfi": 1278,
      "##rt": 1279,
      "acc": 1280,
      "ima": 1281,
      "##la": 1282,
      "##963": 1283,
      "##uf": 1284,
      "##wart": 1285,
      "schwart": 1286,
      "2018": 1287,
      "schwartz": 1288,
      "s12": 1289,
      "emul": 1290,
      "##sion": 1291,
      "emulsion": 1292,
      "emulsionen": 1293,
      "dy": 1294,
      "siemens": 1295,
      "##od": 1296,
      "##gil": 1297,
      "vigil": 1298,
      "##band": 1299,
      "##nam": 1300,
      "dynam": 1301,
      "##isch": 1302,
      "mm": 1303,
      "24": 1304,
      "adv": 1305,
      "trp": 1306,
      "huf": 1307,
      "me": 1308,
      "poth": 1309,
      "hufte": 1310,
      "poths": 1311,
      "1x1": 1312,
      "1x1x": 1313,
      "mrs": 1314,
      "grp": 1315,
      "ins": 1316,
      "flip": 1317,
      "ben": 1318,
      "##pi": 1319,
      "##abd": 1320,
      "adjwatsupseq": 1321,
      "bender": 1322,
      "7steps": 1323,
      "##iert": 1324,
      "ti160": 1325,
      "gyn": 1326,
      "thick": 1327,
      "##im": 1328,
      "##ungen": 1329,
      "##uliert": 1330,
      "stat": 1331,
      "anguliert": 1332,
      "kan": 1333,
      "kanal": 1334,
      "5x": 1335,
      "240fov": 1336,
      "kinderherz": 1337,
      "repro": 1338,
      "na": 1339,
      "##eti": 1340,
      "##tse": 1341,
      "mitherz": 1342,
      "lifeti": 1343,
      "lifetime": 1344,
      "jo": 1345,
      "##vn": 1346,
      "mappingvn": 1347,
      "16": 1348,
      "##ows": 1349,
      "wid": 1350,
      "##eband": 1351,
      "flip25": 1352,
      "wideband": 1353,
      "af": 1354,
      "##ia": 1355,
      "af4": 1356,
      "dis": 1357,
      "##ktion": 1358,
      "##sektion": 1359,
      "044": 1360,
      "dissektion": 1361,
      "acc4": 1362,
      "adjmds": 1363,
      "##10": 1364,
      "##hz": 1365,
      "sc": 1366,
      "##pa": 1367,
      "chestabd": 1368,
      "chestabdpelvis": 1369,
      "nows": 1370,
      "ton": 1371,
      "##cl": 1372,
      "##wand": 1373,
      "thoraxwand": 1374,
      "tone": 1375,
      "imcl": 1376,
      "3steps": 1377,
      "mc": 1378,
      "rfa": 1379,
      "##res": 1380,
      "flair3d": 1381,
      "ti2": 1382,
      "ti5": 1383,
      "##vention": 1384,
      "intervention": 1385,
      "te1": 1386,
      "6mm": 1387,
      "##ichten": 1388,
      "ti550": 1389,
      "md": 1390,
      "thab": 1391,
      "testb": 1392,
      "##li": 1393,
      "##dw": 1394,
      "mddw": 1395,
      "sema": 1396,
      "400fov": 1397,
      "semac": 1398,
      "80": 1399,
      "highres": 1400,
      "ly": 1401,
      "sl": 1402,
      "##mph": 1403,
      "##adder": 1404,
      "bladder": 1405,
      "statisch": 1406,
      "lymph": 1407,
      "schichten": 1408,
      "99": 1409,
      "vat": 1410,
      "##ry": 1411,
      "navi": 1412,
      "pm": 1413,
      "fastview": 1414,
      "ileosacraljoint": 1415,
      "ivibe": 1416,
      "ti250": 1417,
      "][": 1418,
      "fb": 1419,
      "##12": 1420,
      "##han": 1421,
      "swi3d": 1422,
      "##24": 1423,
      "pcasl": 1424,
      "stress": 1425,
      "field": 1426,
      "##n4": 1427,
      "studienprotokolle": 1428,
      "td": 1429,
      "##ela": 1430,
      "rela": 1431,
      "##xom": 1432,
      "##etry": 1433,
      "997": 1434,
      "relaxom": 1435,
      "relaxometry": 1436,
      "short": 1437,
      "pc": 1438,
      "##up": 1439,
      "##11": 1440,
      "##olus": 1441,
      "##01": 1442,
      "sag3mm": 1443,
      "kardi": 1444,
      "lu": 1445,
      "##cia": 1446,
      "spule": 1447,
      "aaspine": 1448,
      "64ch": 1449,
      "kardio": 1450,
      "lucia": 1451,
      "gre963": 1452,
      "insp": 1453,
      "##mp": 1454,
      "##und": 1455,
      "##mod": 1456,
      "grund": 1457,
      "##modul": 1458,
      "grundmodul": 1459,
      "##fts": 1460,
      "allogra": 1461,
      "256": 1462,
      "allografts": 1463,
      "##ere": 1464,
      "##ovist": 1465,
      "stressherz": 1466,
      "thabb": 1467,
      "kids": 1468,
      "360": 1469,
      "gad": 1470,
      "##acq": 1471,
      "imat": 1472,
      "1x1x6": 1473,
      "gadovist": 1474,
      "350": 1475,
      "##gel": 1476,
      "handgel": 1477,
      "handgelenk": 1478,
      "cs6": 1479,
      "dynamic": 1480,
      "##iso": 1481,
      "exp": 1482,
      "bias": 1483,
      "johan": 1484,
      "johanna": 1485,
      "tseb": 1486,
      "gre2d": 1487,
      "##iographie": 1488,
      "t2s": 1489,
      "angiographie": 1490,
      "##slice": 1491,
      "##pt": 1492,
      "ti150": 1493,
      "##rebr": 1494,
      "cerebr": 1495,
      "cerebrum": 1496,
      "##antom": 1497,
      "gkf": 1498,
      "phantom": 1499,
      "##que": 1500,
      "100": 1501,
      "gro": 1502,
      "##wup": 1503,
      "##schel": 1504,
      "te140": 1505,
      "##bographie": 1506,
      "phlebographie": 1507,
      "##seit": 1508,
      "aortitis": 1509,
      "rt": 1510,
      "##fisp": 1511,
      "truefisp": 1512,
      "hd": 1513,
      "iii": 1514,
      "7mm": 1515,
      "##onk": 1516,
      "##aser": 1517,
      "##onko": 1518,
      "20min": 1519,
      "fist": 1520,
      "beid": 1521,
      "##seits": 1522,
      "fistel": 1523,
      "beidseits": 1524,
      "cv": 1525,
      "ed": 1526,
      "qtse": 1527,
      "richt": 1528,
      "ven": 1529,
      "ada": 1530,
      "##pot": 1531,
      "##hs": 1532,
      "sarapot": 1533,
      "sarapoths": 1534,
      "##ang": 1535,
      "richtungen": 1536,
      "mark": 1537,
      "##ore": 1538,
      "##erkon": 1539,
      "epat": 1540,
      "markerkon": 1541,
      "ots1": 1542,
      "adapt": 1543,
      "0mm": 1544,
      "ec": 1545,
      "slaser": 1546,
      "ecg": 1547,
      "nadel": 1548,
      "2025": 1549,
      "nadelkon": 1550,
      "epilog": 1551,
      "restore": 1552,
      "pla": 1553,
      "plaque": 1554,
      "ili": 1555,
      "lm": 1556,
      "qa": 1557,
      "spul": 1558,
      "##osacraljoint": 1559,
      "iliosacraljoint": 1560,
      "lmt": 1561,
      "spulen": 1562,
      "qu": 1563,
      "halsang": 1564,
      "halsangio": 1565,
      "ch": 1566,
      "tis": 1567,
      "gpi": 1568,
      "vim": 1569,
      "-[": 1570,
      "963": 1571,
      "##ging": 1572,
      "##rotis": 1573,
      "capi": 1574,
      "carotis": 1575,
      "imaging": 1576,
      "capias": 1577,
      "ao": 1578,
      "dx": 1579,
      "##eco": 1580,
      "shim": 1581,
      "cs24": 1582,
      "testbolus": 1583,
      "13": 1584,
      "mt": 1585,
      "fa10": 1586,
      "##85": 1587,
      "s8": 1588,
      "beam": 1589,
      "beamer": 1590,
      "rh": 1591,
      "##0sl": 1592,
      "##o2": 1593,
      "##ipkon": 1594,
      "svo2": 1595,
      "clipkon": 1596,
      "trans": 1597,
      "16eco": 1598,
      "edit": 1599,
      "##shim": 1600,
      "##ingle": 1601,
      "bwk": 1602,
      "200": 1603,
      "single": 1604,
      "a15": 1605,
      "pld": 1606,
      "##sensor": 1607,
      "beatsensor": 1608,
      "reph": 1609,
      "groschel": 1610,
      "1iso": 1611,
      "vict": 1612,
      "standart": 1613,
      "10min": 1614,
      "victor": 1615,
      "gn4": 1616,
      "##ta": 1617,
      "quick": 1618,
      "gn41": 1619,
      "2000": 1620,
      "8mm": 1621,
      "##schrit": 1622,
      "dynamik": 1623,
      "##ssf": 1624,
      "ge": 1625,
      "##mra": 1626,
      "advmra": 1627,
      "aobo": 1628,
      "##schritta": 1629,
      "##schichtsschadel": 1630,
      "fair": 1631,
      "geschichtsschadel": 1632,
      "2schritta": 1633,
      "rpa": 1634,
      "min": 1635,
      "##ink": 1636,
      "320": 1637,
      "lpa": 1638,
      "ru": 1639,
      "dist": 1640,
      "temp": 1641,
      "ruhe": 1642,
      "sm": 1643,
      "##vo": 1644,
      "##all": 1645,
      "vivo": 1646,
      "##aryn": 1647,
      "pharyn": 1648,
      "singleslice": 1649,
      "small": 1650,
      "pharynx": 1651,
      "vti": 1652,
      "10mm": 1653,
      "##thing": 1654,
      "##sen": 1655,
      "##coutseq": 1656,
      "breathing": 1657,
      "##sscoutseq": 1658,
      "hc7": 1659,
      "adjmdsscoutseq": 1660,
      "3hz": 1661,
      "##va": 1662,
      "1x1x5": 1663,
      "lis": 1664,
      "qmri": 1665,
      "sick": 1666,
      "tu": 1667,
      "##dig": 1668,
      "lindig": 1669,
      "lisa": 1670,
      "ml": 1671,
      "##scat": 1672,
      "neckche": 1673,
      "medi": 1674,
      "neckchest": 1675,
      "160": 1676,
      "3scan": 1677,
      "ek": 1678,
      "##dir": 1679,
      "300fov": 1680,
      "ekg": 1681,
      "mrt": 1682,
      "vul": 1683,
      "##kh": 1684,
      "##ogen": 1685,
      "##tral": 1686,
      "vulva": 1687,
      "tkh": 1688,
      "##bi": 1689,
      "radtse": 1690,
      "4bi": 1691,
      "fi": 1692,
      "ls": 1693,
      "##ki": 1694,
      "##sie": 1695,
      "##olatera": 1696,
      "##opsie": 1697,
      "biopsie": 1698,
      "interv": 1699,
      "mediolatera": 1700,
      "biopsiekon": 1701,
      "mediolateral": 1702,
      "tp": 1703,
      "tg": 1704,
      "##400": 1705,
      "tgse": 1706,
      "fer": 1707,
      "##can": 1708,
      "##riscan": 1709,
      "##leck": 1710,
      "##ood": 1711,
      "liquorleck": 1712,
      "ferriscan": 1713,
      "ve": 1714,
      "##t1": 1715,
      "prox": 1716,
      "lsspine": 1717,
      "ve11": 1718,
      "09": 1719,
      "bms": 1720,
      "ink": 1721,
      "pe": 1722,
      "098": 1723,
      ")[": 1724,
      "bba": 1725,
      "##300": 1726,
      "##blood": 1727,
      "prot": 1728,
      "##erex": 1729,
      "tuerex": 1730,
      "4t": 1731,
      "fetal": 1732,
      "##bat": 1733,
      "##ubat": 1734,
      "shortte": 1735,
      "inkubat": 1736,
      "fetales": 1737,
      "inkubator": 1738,
      "cs3": 1739,
      "chop": 1740,
      "low": 1741,
      "##ni": 1742,
      "##a60": 1743,
      "adni": 1744,
      "##fieldmap": 1745,
      "fi3d": 1746,
      "512": 1747,
      "v01": 1748,
      "##bogen": 1749,
      "##32": 1750,
      "60sl": 1751,
      "jere": 1752,
      "nod": 1753,
      "##my": 1754,
      "asl3d": 1755,
      "conrad": 1756,
      "meas": 1757,
      "jeremy": 1758,
      "noddi": 1759,
      "##enbogen": 1760,
      "30dir": 1761,
      "venc1": 1762,
      "ell": 1763,
      "shot": 1764,
      "darkblood": 1765,
      "135": 1766,
      "ellenbogen": 1767,
      "##pre": 1768,
      "##ation": 1769,
      "pros": 1770,
      "cf": 1771,
      "##entr": 1772,
      "##prep": 1773,
      "fentr": 1774,
      "##lo": 1775,
      "##79": 1776,
      "##ipid": 1777,
      "hf85": 1778,
      "gn4179": 1779,
      "fentripid": 1780,
      "gn41791": 1781,
      "##fg": 1782,
      "##nas": 1783,
      "klein": 1784,
      "press": 1785,
      "jonas": 1786,
      "2000c": 1787,
      "tms": 1788,
      "c4": 1789,
      "ga": 1790,
      "owup": 1791,
      "sel": 1792,
      "radio": 1793,
      "libra": 1794,
      "hd8": 1795,
      "radioonko": 1796,
      "bn4": 1797,
      "##83": 1798,
      "##iss": 1799,
      "##2083": 1800,
      "##votte": 1801,
      "cs4": 1802,
      "gavotte": 1803,
      "bn42083": 1804,
      "bssf": 1805,
      "co": 1806,
      "radonko": 1807,
      "##ppe": 1808,
      "gobra": 1809,
      "##lappe": 1810,
      "bssfp": 1811,
      "gobrain": 1812,
      "##92": 1813,
      "helo": 1814,
      "wip963": 1815,
      "tiscout": 1816,
      "##30": 1817,
      "sag2": 1818,
      "adjmdsfieldmap": 1819,
      "##163": 1820,
      "m192": 1821,
      "bw163": 1822,
      "bw1630": 1823,
      "70": 1824,
      "klappe": 1825,
      "rf": 1826,
      "##km": 1827,
      "##sal": 1828,
      "##ind": 1829,
      "kleink": 1830,
      "kleinkind": 1831,
      "150": 1832,
      "50hz": 1833,
      "##avg": 1834,
      "acc7": 1835,
      "ve11c": 1836,
      "c2": 1837,
      "ct": 1838,
      "qiss": 1839,
      "vo": 1840,
      "##59": 1841,
      "##659": 1842,
      "##shot": 1843,
      "hc2": 1844,
      "##x16": 1845,
      "ct01": 1846,
      "vo659": 1847,
      "tf": 1848,
      "km2": 1849,
      "dor": 1850,
      "misch": 1851,
      "##ronal": 1852,
      "coronal": 1853,
      "dorsal": 1854,
      "mischungen": 1855,
      "uh": 1856,
      "##ank": 1857,
      "fa25": 1858,
      "10e": 1859,
      "2acq": 1860,
      "fr": 1861,
      "pkm": 1862,
      "xa60": 1863,
      "##iral": 1864,
      "15min": 1865,
      "longt1": 1866,
      "venc120": 1867,
      "frank": 1868,
      "6x16": 1869,
      "dki": 1870,
      "fur": 1871,
      "nark": 1872,
      "##osen": 1873,
      "##isl": 1874,
      "dki1": 1875,
      "narkosen": 1876,
      "27": 1877,
      "87": 1878,
      "sisl": 1879,
      "ta": 1880,
      "##comp": 1881,
      "spiral": 1882,
      "brainshim": 1883,
      "##erarm": 1884,
      "oberarm": 1885,
      "uhf": 1886,
      "lr": 1887,
      "nb": 1888,
      "t2prep": 1889,
      "##ate": 1890,
      "75": 1891,
      "non": 1892,
      "##401": 1893,
      "resting": 1894,
      "tf2d": 1895,
      "2e": 1896,
      "fre": 1897,
      "flowcomp": 1898,
      "30r": 1899,
      "ful": 1900,
      "l4": 1901,
      "##kb": 1902,
      "##ps": 1903,
      "full": 1904,
      "1400": 1905,
      "drs": 1906,
      "qfl": 1907,
      "vkb": 1908,
      "adjint": 1909,
      "##trace": 1910,
      "hydrops": 1911,
      "adjintshim": 1912,
      "##rum": 1913,
      "##wort": 1914,
      "faust": 1915,
      "##aba": 1916,
      "adjmdsseq": 1917,
      "6x16wort": 1918,
      "2slice": 1919,
      "4acq": 1920,
      "88": 1921,
      "gaba": 1922,
      "von": 1923,
      "##52": 1924,
      "tr50": 1925,
      "shi": 1926,
      "80avg": 1927,
      "qfl2d": 1928,
      "##rie": 1929,
      "##bolus": 1930,
      "carebolus": 1931,
      "int": 1932,
      "librarie": 1933,
      "libraries": 1934,
      "4trace": 1935,
      "ci": 1936,
      "##ek": 1937,
      "km1": 1938,
      "defa": 1939,
      "##ekation": 1940,
      "defaekation": 1941,
      "dscat": 1942,
      "sar": 1943,
      "sscat": 1944,
      "##act": 1945,
      "##p6": 1946,
      "##plant": 1947,
      "vibe963": 1948,
      "##ssungen": 1949,
      "implant": 1950,
      "messungen": 1951,
      "quickshot": 1952,
      "##fgate": 1953,
      "selfgate": 1954,
      "implantat": 1955,
      "cen": 1956,
      "no": 1957,
      "rtel": 1958,
      "##ex": 1959,
      "##unk": 1960,
      "##std": 1961,
      "##flex": 1962,
      "shp6": 1963,
      "plane": 1964,
      "##2500": 1965,
      "schulterg": 1966,
      "tpat": 1967,
      "shire": 1968,
      "central": 1969,
      "shp611": 1970,
      "tl": 1971,
      "ul": 1972,
      "##ak": 1973,
      "##raflex": 1974,
      "##ory": 1975,
      "cs7": 1976,
      "ventral": 1977,
      "pld2500": 1978,
      "tlspine": 1979,
      "ulraflex": 1980,
      "ring": 1981,
      "sil": 1982,
      "�[": 1983,
      "##02": 1984,
      "##kop": 1985,
      "##2x": 1986,
      "##1mm": 1987,
      "spec": 1988,
      "##roskop": 1989,
      "open": 1990,
      "spekt": 1991,
      "pat3": 1992,
      "peak": 1993,
      "##roskopie": 1994,
      "spektroskopie": 1995,
      "gal": 1996,
      "oh": 1997,
      "##rv": 1998,
      "##nc": 1999,
      "serv": 2000,
      "##splan": 2001,
      "##ices": 2002,
      "prosp": 2003,
      "##amber": 2004,
      "bestrahlungsplan": 2005,
      "##iceseq": 2006,
      "t2star": 2007,
      "state": 2008,
      "chamber": 2009,
      "galle": 2010,
      "serviceseq": 2011,
      "bestrahlungsplanung": 2012,
      "lw": 2013,
      "std": 2014,
      "##phase": 2015,
      "lwk": 2016,
      "cn": 2017,
      "clin": 2018,
      "mwup": 2019,
      "pul": 2020,
      "was": 2021,
      "##a02": 2022,
      "##752": 2023,
      "##ant": 2024,
      "##io752": 2025,
      "isg": 2026,
      "##101": 2027,
      "cnio752": 2028,
      "clinic": 2029,
      "##a02101": 2030,
      "cnio752a02101": 2031,
      "8sl": 2032,
      "90sl": 2033,
      "##ben": 2034,
      "##adj": 2035,
      "##alla": 2036,
      "abdalla": 2037,
      "##ipi": 2038,
      "caipi": 2039,
      "90slices": 2040,
      "abdallah": 2041,
      "proband": 2042,
      "exsp": 2043,
      "react": 2044,
      "probanden": 2045,
      "fat": 2046,
      "##rev": 2047,
      "##olli": 2048,
      "blip": 2049,
      "iso1mm": 2050,
      "10ms": 2051,
      "thabbe": 2052,
      "bliprev": 2053,
      "2te": 2054,
      "ar": 2055,
      "morp": 2056,
      "mem": 2057,
      "##ft": 2058,
      "##ho": 2059,
      "bossf": 2060,
      "inphase": 2061,
      "##ront": 2062,
      "2tes": 2063,
      "morpho": 2064,
      "memory": 2065,
      "bossfront": 2066,
      "hnc": 2067,
      "oe": 2068,
      "##dsp": 2069,
      "##tum": 2070,
      "##ende": 2071,
      "##onco": 2072,
      "radonco": 2073,
      "leben": 2074,
      "sellink": 2075,
      "epat2x": 2076,
      "##dspende": 2077,
      "lebendspende": 2078,
      "]°": 2079,
      "fen": 2080,
      "##21": 2081,
      "##gr": 2082,
      "##rotum": 2083,
      "##spgr": 2084,
      "##ce1": 2085,
      "3dspgr": 2086,
      "scrotum": 2087,
      "##hance1": 2088,
      "##851": 2089,
      "gn41851": 2090,
      "nonsel": 2091,
      "fenhance1": 2092,
      "4d": 2093,
      "fon": 2094,
      "##inks": 2095,
      "##80": 2096,
      "##net": 2097,
      "##eschel": 2098,
      "##2ra": 2099,
      "##2map": 2100,
      "##tan": 2101,
      "##sell": 2102,
      "##selre": 2103,
      "insell": 2104,
      "inselre": 2105,
      "mp2ra": 2106,
      "3kli": 2107,
      "groeschel": 2108,
      "tf2d12": 2109,
      "ohnet": 2110,
      "t2starmap": 2111,
      "fontan": 2112,
      "##2mapping": 2113,
      "insellinks": 2114,
      "mp2rage": 2115,
      "ohnet2mapping": 2116,
      "m0": 2117,
      "sn": 2118,
      "us": 2119,
      "v0": 2120,
      "##bhc": 2121,
      "##du": 2122,
      "##ko": 2123,
      "12av": 2124,
      "halbhc": 2125,
      "fats": 2126,
      "inselrechts": 2127,
      "cmr": 2128,
      "mbe": 2129,
      "##ico": 2130,
      "##p2d": 2131,
      "produ": 2132,
      "##ced": 2133,
      "advmrars": 2134,
      "c2000": 2135,
      "fatsat": 2136,
      "cmrr": 2137,
      "mbep2d": 2138,
      "produkt": 2139,
      "03": 2140,
      "bat": 2141,
      "lip": 2142,
      "##uor": 2143,
      "##anced": 2144,
      "km3": 2145,
      "thabd": 2146,
      "##256": 2147,
      "imf": 2148,
      "##lap": 2149,
      "advanced": 2150,
      "nako": 2151,
      "batch": 2152,
      "lipuor": 2153,
      "lipuorflu": 2154,
      "01": 2155,
      "450": 2156,
      "v2": 2157,
      "##lic": 2158,
      "##plic": 2159,
      "seq": 2160,
      "av2": 2161,
      "##ritis": 2162,
      "loki": 2163,
      "applic": 2164,
      "deep": 2165,
      "swift": 2166,
      "##thritis": 2167,
      "2019": 2168,
      "arthritis": 2169,
      "applications": 2170,
      "off": 2171,
      "##ox": 2172,
      "##a12": 2173,
      "##c401": 2174,
      "##hr": 2175,
      "##iet": 2176,
      "##oria": 2177,
      "gloria": 2178,
      "mehr": 2179,
      "c421": 2180,
      "ring3": 2181,
      "snox": 2182,
      "##a12c401": 2183,
      "snoxa12c401": 2184,
      "bgre": 2185,
      "rms": 2186,
      "##osis": 2187,
      "kurt": 2188,
      "iso0": 2189,
      "dbs": 2190,
      "t2mapping": 2191,
      "exprad": 2192,
      "pulse": 2193,
      "bgrechts": 2194,
      "kurtosis": 2195,
      "140": 2196,
      "cris": 2197,
      "pip": 2198,
      "##ack": 2199,
      "ti900ms": 2200,
      "noe": 2201,
      "crisp": 2202,
      "pipe": 2203,
      "001": 2204,
      "6ut": 2205,
      "ip": 2206,
      "slap": 2207,
      "##ner": 2208,
      "##tw": 2209,
      "288": 2210,
      "aptw": 2211,
      "25min": 2212,
      "shortt1": 2213,
      "ipat": 2214,
      "35": 2215,
      "sac": 2216,
      "vin": 2217,
      "##ssen": 2218,
      "##anut": 2219,
      "##adv": 2220,
      "prov": 2221,
      "##ab1": 2222,
      "pressen": 2223,
      "peanut": 2224,
      "freq": 2225,
      "wasab1": 2226,
      "sacrum": 2227,
      "vinod": 2228,
      "l5": 2229,
      "slice": 2230,
      "ua": 2231,
      "vb": 2232,
      "vfa": 2233,
      "##0hz": 2234,
      "##bw": 2235,
      "##vt": 2236,
      "##un": 2237,
      "##mstd": 2238,
      "##fast": 2239,
      "siemstd": 2240,
      "##meas": 2241,
      "gesamte": 2242,
      "64acq": 2243,
      "slab": 2244,
      "vbm": 2245,
      "siemstdfast": 2246,
      "32": 2247,
      "dfg": 2248,
      "dunk": 2249,
      "ivi": 2250,
      "l3": 2251,
      "on": 2252,
      "##ira": 2253,
      "##68": 2254,
      "##350": 2255,
      "##150": 2256,
      "##olsel": 2257,
      "corr": 2258,
      "##chos": 2259,
      "12meas": 2260,
      "myseq": 2261,
      "2024": 2262,
      "te13": 2263,
      "130hz": 2264,
      "pld300": 2265,
      "ml1": 2266,
      "silic": 2267,
      "exspira": 2268,
      "dunkel": 2269,
      "ivim": 2270,
      "exspiration": 2271,
      "1401": 2272,
      "79": 2273,
      "imm": 2274,
      "mat": 2275,
      "oa": 2276,
      "zo": 2277,
      "##if": 2278,
      "##krum": 2279,
      "##500": 2280,
      "##enn": 2281,
      "##olum": 2282,
      "km4": 2283,
      "##ovant": 2284,
      "kneif": 2285,
      "glenn": 2286,
      "sakrum": 2287,
      "64chan": 2288,
      "imvt": 2289,
      "3201": 2290,
      "lower": 2291,
      "fullwup": 2292,
      "thabdbe": 2293,
      "##unovant": 2294,
      "794": 2295,
      "immunovant": 2296,
      "zoom": 2297,
      "##olume": 2298,
      "kneifen": 2299,
      "fu": 2300,
      "nf": 2301,
      "rhe": 2302,
      "we": 2303,
      "##ose": 2304,
      "##bia": 2305,
      "##uma": 2306,
      "##ger": 2307,
      "##x5": 2308,
      "trigger": 2309,
      "tibia": 2310,
      "te40": 2311,
      "close": 2312,
      "rheuma": 2313,
      "closed": 2314,
      "9iso": 2315,
      "gel": 2316,
      "##aet": 2317,
      "##enke": 2318,
      "##ovolume": 2319,
      "tr2": 2320,
      "extremitaet": 2321,
      "isovolume": 2322,
      "180": 2323,
      "hw3": 2324,
      "##1200": 2325,
      "75x0": 2326,
      "75x5": 2327,
      "epat2x3": 2328,
      "gelenke": 2329,
      "2b": 2330,
      "2sh": 2331,
      "700": 2332,
      "ass": 2333,
      "c3": 2334,
      "fe": 2335,
      "gb": 2336,
      "ling": 2337,
      "wup": 2338,
      "##rn": 2339,
      "##89": 2340,
      "##dwi": 2341,
      "##rect": 2342,
      "te89": 2343,
      "scrn": 2344,
      "td300": 2345,
      "library": 2346,
      "free": 2347,
      "batch2": 2348,
      "1404": 2349,
      "2b0": 2350,
      "2shell": 2351,
      "assist": 2352,
      "feet": 2353,
      "lingg": 2354,
      "42": 2355,
      "dwi": 2356,
      "fc": 2357,
      "molli": 2358,
      "nc": 2359,
      "t5": 2360,
      "va60": 2361,
      "##5std": 2362,
      "##gar": 2363,
      "##13": 2364,
      "##932": 2365,
      "cornell": 2366,
      "fa7": 2367,
      "ref": 2368,
      "wip932": 2369,
      "30min": 2370,
      "##advadj": 2371,
      "##150hz": 2372,
      "te135std": 2373,
      "te40advadj": 2374,
      "wup150hz": 2375,
      "42g": 2376,
      "nc2": 2377,
      "te135stdadj": 2378,
      "5te": 2379,
      "a32": 2380,
      "cent": 2381,
      "pse": 2382,
      "##ique": 2383,
      "##rrect": 2384,
      "##ud": 2385,
      "##\"\"": 2386,
      "hell": 2387,
      "##correct": 2388,
      "t1s": 2389,
      "stack": 2390,
      "3dge": 2391,
      "dzne": 2392,
      "b0correct": 2393,
      "hc4": 2394,
      "50ph": 2395,
      "te30": 2396,
      "oblique": 2397,
      "eddy": 2398,
      "tf2d13": 2399,
      "silico": 2400,
      "]°[": 2401,
      "mat256": 2402,
      "free68": 2403,
      "t5s": 2404,
      "center": 2405,
      "pseud": 2406,
      "silicone": 2407,
      "224": 2408,
      "echos": 2409,
      "mar": 2410,
      "sol": 2411,
      "son": 2412,
      "##sos": 2413,
      "##molli": 2414,
      "tseir": 2415,
      "##3dsos": 2416,
      "##cho": 2417,
      "mrf3dsos": 2418,
      "highbw": 2419,
      "ti100": 2420,
      "exp3": 2421,
      "openmolli": 2422,
      "insellinksa": 2423,
      "inselrechtsa": 2424,
      "##garine": 2425,
      "margarine": 2426,
      "5min": 2427,
      "ios": 2428,
      "##vc": 2429,
      "##vision": 2430,
      "##eral": 2431,
      "general": 2432,
      "km5": 2433,
      "tr1": 2434,
      "hwk": 2435,
      "revision": 2436,
      "axis": 2437,
      "multi": 2438,
      "quiet": 2439,
      "venc10": 2440,
      "clinical": 2441,
      "caipi8": 2442,
      "caipi3": 2443,
      "iosb": 2444,
      "33": 2445,
      "47": 2446,
      "5g": 2447,
      "6in": 2448,
      "8acq": 2449,
      "b3": 2450,
      "b9": 2451,
      "grad": 2452,
      "h2": 2453,
      "rd": 2454,
      "swe": 2455,
      "xd": 2456,
      "##r60": 2457,
      "##r30": 2458,
      "##800": 2459,
      "##cid": 2460,
      "##600": 2461,
      "##100": 2462,
      "aacid": 2463,
      "##000r60": 2464,
      "vessels": 2465,
      "12ch": 2466,
      "opp": 2467,
      "cs11": 2468,
      "64dir": 2469,
      "b1000r30": 2470,
      "10g": 2471,
      "250fov": 2472,
      "992": 2473,
      "adjmdsfieldmapseq": 2474,
      "spiralvibe": 2475,
      "nonce": 2476,
      "insellinksb": 2477,
      "50phov": 2478,
      "b3000r60": 2479,
      "h2o": 2480,
      "sweep": 2481,
      "8e": 2482,
      "bb": 2483,
      "but": 2484,
      "c1200": 2485,
      "fdi": 2486,
      "l2": 2487,
      "##200": 2488,
      "##xon": 2489,
      "abdbe": 2490,
      "##oprog": 2491,
      "svc": 2492,
      "moco": 2493,
      "25mm": 2494,
      "bwk2": 2495,
      "bwk6": 2496,
      "inselrechtsb": 2497,
      "pseudoprog": 2498,
      "8echo": 2499,
      "butter": 2500,
      "fdixon": 2501,
      "pseudoprogress": 2502,
      "17": 2503,
      "au": 2504,
      "at": 2505,
      "aok": 2506,
      "auf": 2507,
      "b000": 2508,
      "ivc": 2509,
      "kust": 2510,
      "la": 2511,
      "old": 2512,
      "p6": 2513,
      "qdwi": 2514,
      "##0qu": 2515,
      "##cm": 2516,
      "##ui": 2517,
      "##mrm": 2518,
      "##m0qu": 2519,
      "form0qu": 2520,
      "trig2": 2521,
      "ismrm": 2522,
      "1500": 2523,
      "200fov": 2524,
      "wasser": 2525,
      "epat2x2": 2526,
      "bgrechtsb": 2527,
      "bgrechtsa": 2528,
      "kustner": 2529,
      "oldui": 2530,
      "form0quant": 2531,
      "ismrm25": 2532,
      "\"\"": 2533,
      "14": 2534,
      "34": 2535,
      "4cm": 2536,
      "ix": 2537,
      "ja": 2538,
      "volsel": 2539,
      "##sco": 2540,
      "##pie": 2541,
      "##2000": 2542,
      "##minal": 2543,
      "##432": 2544,
      "##hre": 2545,
      "spat": 2546,
      "abdominal": 2547,
      "##erapie": 2548,
      "therapie": 2549,
      "##derprotokolle": 2550,
      "loop": 2551,
      "masco": 2552,
      "strong": 2553,
      "20432": 2554,
      "stimulation": 2555,
      "bwk10": 2556,
      "singleshot": 2557,
      "32av": 2558,
      "sonderprotokolle": 2559,
      "gradsens": 2560,
      "auge": 2561,
      "atn": 2562,
      "ixico": 2563,
      "jahre": 2564,
      "volselect": 2565,
      "spatial": 2566,
      "mascot": 2567,
      "20432a": 2568,
      "jahren": 2569,
      "3000": 2570,
      "4steps": 2571,
      "ei": 2572,
      "fte": 2573,
      "f300": 2574,
      "l1": 2575,
      "oel": 2576,
      "vc": 2577,
      "##imm": 2578,
      "##oc": 2579,
      "##oma": 2580,
      "##est": 2581,
      "##cp": 2582,
      "##tte": 2583,
      "##7ad": 2584,
      "adjqu": 2585,
      "##anne": 2586,
      "##stimm": 2587,
      "##bestimm": 2588,
      "##usanne": 2589,
      "##short": 2590,
      "kuest": 2591,
      "flairb": 2592,
      "##201": 2593,
      "b0pa": 2594,
      "mrcp": 2595,
      "biogen": 2596,
      "##okation": 2597,
      "knoma": 2598,
      "247ad": 2599,
      "td350": 2600,
      "##senbestimm": 2601,
      "##fieldmapseq": 2602,
      "adjintshimseq": 2603,
      "##ietfieldmapseq": 2604,
      "provokation": 2605,
      "aokl": 2606,
      "lausanne": 2607,
      "eisenbestimm": 2608,
      "adjquietfieldmapseq": 2609,
      "kuestner": 2610,
      "247ad201": 2611,
      "eisenbestimmung": 2612,
      "2pt": 2613,
      "3e": 2614,
      "c1": 2615,
      "fy": 2616,
      "kl": 2617,
      "mich": 2618,
      "ww": 2619,
      "##uch": 2620,
      "##5ms": 2621,
      "##16": 2622,
      "##yer": 2623,
      "tr350": 2624,
      "te20": 2625,
      "fov500": 2626,
      "##1500": 2627,
      "##layer": 2628,
      "ti200": 2629,
      "bwk12": 2630,
      "lwk4": 2631,
      "pulseq": 2632,
      "micha": 2633,
      "3av": 2634,
      "60": 2635,
      "8el": 2636,
      "ba": 2637,
      "ber": 2638,
      "dm": 2639,
      "dre": 2640,
      "esp": 2641,
      "fil": 2642,
      "rx": 2643,
      "�\"\"": 2644,
      "##oa": 2645,
      "##not": 2646,
      "##nik": 2647,
      "##ement": 2648,
      "##cro": 2649,
      "##volsel": 2650,
      "##54": 2651,
      "##130": 2652,
      "adjfrenot": 2653,
      "stab": 2654,
      "t2short": 2655,
      "fl25": 2656,
      "##chnik": 2657,
      "thin": 2658,
      "##rb130": 2659,
      "##ipunk": 2660,
      "ti50": 2661,
      "te54": 2662,
      "td1500": 2663,
      "bwk5": 2664,
      "pld2000": 2665,
      "lwk1": 2666,
      "batch1": 2667,
      "eddycro": 2668,
      "tr185": 2669,
      "17rb130": 2670,
      "##ttechnik": 2671,
      "8element": 2672,
      "bauch": 2673,
      "berg": 2674,
      "dmi": 2675,
      "dreipunk": 2676,
      "esp0": 2677,
      "filter": 2678,
      "adjfrenotvolsel": 2679,
      "eddycross": 2680,
      "8elemente": 2681,
      "dreipunkttechnik": 2682,
      "3fa": 2683,
      "480": 2684,
      "del": 2685,
      "doa": 2686,
      "funk": 2687,
      "sr": 2688,
      "sy": 2689,
      "tum": 2690,
      "thx": 2691,
      "##abs": 2692,
      "1000ms": 2693,
      "leberwup": 2694,
      "##slabs": 2695,
      "cs2": 2696,
      "normal": 2697,
      "250ms": 2698,
      "100ms": 2699,
      "2000ms": 2700,
      "150ms": 2701,
      "75ms": 2702,
      "35ms": 2703,
      "144": 2704,
      "funktion": 2705,
      "syst": 2706,
      "tumor": 2707,
      "120": 2708,
      "170": 2709,
      "21": 2710,
      "45": 2711,
      "c7": 2712,
      "ein": 2713,
      "lows": 2714,
      "nch": 2715,
      "##ri": 2716,
      "##non": 2717,
      "##df": 2718,
      "##cnon": 2719,
      "##s100": 2720,
      "##pus": 2721,
      "##poc": 2722,
      "##gen": 2723,
      "bogen": 2724,
      "##ilat": 2725,
      "km6": 2726,
      "##ovs100": 2727,
      "block": 2728,
      "black": 2729,
      "excnon": 2730,
      "hippoc": 2731,
      "ti25": 2732,
      "ti400": 2733,
      "ti32": 2734,
      "ti800": 2735,
      "125ms": 2736,
      "hc6": 2737,
      "##ampus": 2738,
      "##brin": 2739,
      "40min": 2740,
      "40iso": 2741,
      "ti1600": 2742,
      "1024": 2743,
      "10df": 2744,
      "te150": 2745,
      "sl256": 2746,
      "slovs100": 2747,
      "bwk11": 2748,
      "fibrin": 2749,
      "noa": 2750,
      "sweep16": 2751,
      "1500ms": 2752,
      "3000ms": 2753,
      "21sl": 2754,
      "lowsar": 2755,
      "blackblood": 2756,
      "excnonsel": 2757,
      "hippocampus": 2758,
      "ti3200": 2759,
      ".\"\"": 2760,
      "00": 2761,
      "063": 2762,
      "1sl": 2763,
      "2slabs": 2764,
      "]´": 2765,
      "chol": 2766,
      "nuf": 2767,
      "wil": 2768,
      "##so": 2769,
      "##vect": 2770,
      "##6400": 2771,
      "##arsch": 2772,
      "##flow": 2773,
      "shield": 2774,
      "main": 2775,
      "iso4mm": 2776,
      "ti6400": 2777,
      "50min": 2778,
      "phase": 2779,
      "te2": 2780,
      "dir3": 2781,
      "10k": 2782,
      "mtarsch": 2783,
      "bwk7": 2784,
      "ml2": 2785,
      "ml3": 2786,
      "lowres": 2787,
      "ohne": 2788,
      "lwk3": 2789,
      "ipat2": 2790,
      "tr250": 2791,
      "ref3": 2792,
      "eddyprep": 2793,
      "vcs": 2794,
      "cholin": 2795,
      "nuft": 2796,
      "wilke": 2797,
      "##vector": 2798,
      "mtarschule": 2799,
      "37": 2800,
      "3sch": 2801,
      "5k": 2802,
      "]�": 2803,
      "al": 2804,
      "asc": 2805,
      "art": 2806,
      "bp": 2807,
      "laser": 2808,
      "lact": 2809,
      "m2": 2810,
      "or": 2811,
      "sark": 2812,
      "##850": 2813,
      "##nel": 2814,
      "##mory": 2815,
      "##650": 2816,
      "##nabel": 2817,
      "##iginal": 2818,
      "start": 2819,
      "tr300": 2820,
      "tr650": 2821,
      "schnel": 2822,
      "blase": 2823,
      "planen": 2824,
      "##memory": 2825,
      "5mm200": 2826,
      "50k": 2827,
      "te60": 2828,
      "##seitig": 2829,
      "bwk3": 2830,
      "petra": 2831,
      "6x16memory": 2832,
      "drsb": 2833,
      "180ep": 2834,
      "sweep32": 2835,
      "bauchnabel": 2836,
      "einseitig": 2837,
      "1024vector": 2838,
      "3schichten": 2839,
      "alt": 2840,
      "lactate": 2841,
      "m224": 2842,
      "original": 2843,
      "sarkom": 2844,
      "schnelle": 2845,
      "5mm200fov": 2846,
      "230": 2847,
      "8avg": 2848,
      "bip": 2849,
      "c0": 2850,
      "ciss": 2851,
      "df": 2852,
      "des": 2853,
      "emp": 2854,
      "hu": 2855,
      "idwi": 2856,
      "tx": 2857,
      "##rx": 2858,
      "##ef": 2859,
      "##echos": 2860,
      "##sf": 2861,
      "##fang": 2862,
      "##90": 2863,
      "send": 2864,
      "##ref": 2865,
      "t1layer": 2866,
      "tr400": 2867,
      "th11": 2868,
      "ti0": 2869,
      "b0adv": 2870,
      "15deg": 2871,
      "desc": 2872,
      "hrle": 2873,
      "te300": 2874,
      "pat2": 2875,
      "bw850": 2876,
      "2500": 2877,
      "flip70": 2878,
      "flip10": 2879,
      "te100": 2880,
      "990": 2881,
      "td1": 2882,
      "td1200": 2883,
      "minip": 2884,
      "coil": 2885,
      "35min": 2886,
      "32echos": 2887,
      "df10": 2888,
      "empfang": 2889,
      "huef": 2890,
      "txrx": 2891,
      "sende": 2892,
      "huefte": 2893,
      "2bh": 2894,
      "36": 2895,
      "4m": 2896,
      "44": 2897,
      "4prep": 2898,
      "55": 2899,
      "6b": 2900,
      "650": 2901,
      "base": 2902,
      "car": 2903,
      "dr": 2904,
      "hist": 2905,
      "ishim": 2906,
      "nco": 2907,
      "pr": 2908,
      "qse": 2909,
      "##off": 2910,
      "##ed": 2911,
      "##bt": 2912,
      "##are": 2913,
      "##calizer": 2914,
      "##fer": 2915,
      "##f68": 2916,
      "##tro": 2917,
      "##hare": 2918,
      "spf68": 2919,
      "##ution": 2920,
      "t1w": 2921,
      "##trast": 2922,
      "t2layer": 2923,
      "av1": 2924,
      "##spule": 2925,
      "tr10": 2926,
      "##lle": 2927,
      "th4": 2928,
      "th12": 2929,
      "para": 2930,
      "##esur": 2931,
      "resolution": 2932,
      "unilat": 2933,
      "read": 2934,
      "elscan": 2935,
      "128": 2936,
      "12sl": 2937,
      "12eco": 2938,
      "p421": 2939,
      "lvot2": 2940,
      "te50": 2941,
      "fidseq": 2942,
      "kniespule": 2943,
      "contrast": 2944,
      "fov230": 2945,
      "mc32": 2946,
      "sl1mm": 2947,
      "fastviewlo": 2948,
      "td400": 2949,
      "venc": 2950,
      "bwk8": 2951,
      "pld500": 2952,
      "minbw": 2953,
      "tunc": 2954,
      "rfoff": 2955,
      "uhf2": 2956,
      "freesur": 2957,
      "defaekation2": 2958,
      "arnd": 2959,
      "4dflow": 2960,
      "ref2": 2961,
      "echoshare": 2962,
      "hwk2": 2963,
      "oel1": 2964,
      "vcsb": 2965,
      "bipol": 2966,
      "448": 2967,
      "carbo": 2968,
      "drg": 2969,
      "histo": 2970,
      "##trolle": 2971,
      "fastviewlocalizer": 2972,
      "tuncal": 2973,
      "freesurfer": 2974,
      "1h": 2975,
      "4s": 2976,
      "46": 2977,
      "69": 2978,
      "852": 2979,
      "90": 2980,
      "9mm": 2981,
      "bd": 2982,
      "dce": 2983,
      "er": 2984,
      "f0": 2985,
      "fh": 2986,
      "lar": 2987,
      "omit": 2988,
      "ra": 2989,
      "sat": 2990,
      "wref": 2991,
      "##oil": 2992,
      "##oflu": 2993,
      "##lina": 2994,
      "##amm": 2995,
      "##mo": 2996,
      "##ga": 2997,
      "##450": 2998,
      "##6mm": 2999,
      "##was": 3000,
      "seg": 3001,
      "##stand": 3002,
      "abstand": 3003,
      "##erlap": 3004,
      "##dist": 3005,
      "t12": 3006,
      "t2sp": 3007,
      "t2me": 3008,
      "##overlap": 3009,
      "tr11": 3010,
      "tr600": 3011,
      "tr450": 3012,
      "##irn": 3013,
      "##idle": 3014,
      "iso6mm": 3015,
      "##geoverlap": 3016,
      "leberwas": 3017,
      "resp": 3018,
      "12mm": 3019,
      "flow300": 3020,
      "2kre": 3021,
      "opt": 3022,
      "gesichtssch": 3023,
      "cs1": 3024,
      "lvot1": 3025,
      "te15": 3026,
      "te80": 3027,
      "liquoflu": 3028,
      "40hz": 3029,
      "380": 3030,
      "fov150": 3031,
      "steidle": 3032,
      "25ph": 3033,
      "16acq": 3034,
      "sl5": 3035,
      "rtf": 3036,
      "bwk1": 3037,
      "bwk9": 3038,
      "pld1": 3039,
      "##x168": 3040,
      "te139": 3041,
      "matri": 3042,
      "hwk3": 3043,
      "multi24": 3044,
      "vci": 3045,
      "852ms": 3046,
      "bds": 3047,
      "erd": 3048,
      "largeoverlap": 3049,
      "##oiler": 3050,
      "##lination": 3051,
      "t2space": 3052,
      "t2med": 3053,
      "tr1140": 3054,
      "leberwasser": 3055,
      "liquofluss": 3056,
      "matrix168": 3057,
      ".-": 3058,
      "270": 3059,
      "352": 3060,
      "4schritte": 3061,
      "4deg": 3062,
      "6ri": 3063,
      "].": 3064,
      "b7": 3065,
      "bilat": 3066,
      "cp": 3067,
      "core": 3068,
      "ea": 3069,
      "fag": 3070,
      "g10": 3071,
      "kon": 3072,
      "lov": 3073,
      "mag": 3074,
      "mik": 3075,
      "pine": 3076,
      "rbt": 3077,
      "ssf": 3078,
      "wal": 3079,
      "##nu": 3080,
      "##eg": 3081,
      "##pul": 3082,
      "##uh": 3083,
      "##uda": 3084,
      "##250": 3085,
      "##mg": 3086,
      "##miert": 3087,
      "##grad": 3088,
      "##g10": 3089,
      "##fir": 3090,
      "##42": 3091,
      "##47": 3092,
      "##tal": 3093,
      "##tir": 3094,
      "##340": 3095,
      "##sear": 3096,
      "hemo": 3097,
      "adjfresear": 3098,
      "##standar": 3099,
      "##ittal": 3100,
      "##beben": 3101,
      "##spoiler": 3102,
      "sagittal": 3103,
      "kmuh": 3104,
      "tr5": 3105,
      "##llel": 3106,
      "##chsl": 3107,
      "epg": 3108,
      "##neup": 3109,
      "schenkel": 3110,
      "iso1": 3111,
      "time": 3112,
      "fa4": 3113,
      "tirmb": 3114,
      "ti90": 3115,
      "260": 3116,
      "##ella": 3117,
      "4scantrace": 3118,
      "b0map": 3119,
      "##timiert": 3120,
      "150fov": 3121,
      "halbeben": 3122,
      "##epg": 3123,
      "flow250": 3124,
      "optimiert": 3125,
      "5mmiso": 3126,
      "osus": 3127,
      "##versal": 3128,
      "##6080": 3129,
      "te10": 3130,
      "patella": 3131,
      "phlebo1": 3132,
      "wade2": 3133,
      "30iso": 3134,
      "siemensstandar": 3135,
      "flip2": 3136,
      "##imovist": 3137,
      "te142": 3138,
      "td800": 3139,
      "shortspoiler": 3140,
      "100hz": 3141,
      "adap": 3142,
      "transversal": 3143,
      "##tapos": 3144,
      "mini": 3145,
      "tuneup": 3146,
      "peg": 3147,
      "tf50": 3148,
      "uhr": 3149,
      "shift": 3150,
      "defaekation1": 3151,
      "##2x2": 3152,
      "lwk2": 3153,
      "fatcomp": 3154,
      "t2starmap2d": 3155,
      "fontan2": 3156,
      "sliceepg": 3157,
      "180grad": 3158,
      "pseudo": 3159,
      "tr147": 3160,
      "abdbecken": 3161,
      "wasseru": 3162,
      "deltapos": 3163,
      "45min": 3164,
      "td1400": 3165,
      "primovist": 3166,
      "##edit": 3167,
      "parallel": 3168,
      "omitfir": 3169,
      "segment": 3170,
      "cpmg": 3171,
      "coreg": 3172,
      "eachsl": 3173,
      "fagtir": 3174,
      "g10ie": 3175,
      "konus": 3176,
      "lovt": 3177,
      "miktion": 3178,
      "pinealis": 3179,
      "ssfp": 3180,
      "walnu": 3181,
      "adjfresearch": 3182,
      "kmuhf": 3183,
      "time6080": 3184,
      "halbebene": 3185,
      "siemensstandard": 3186,
      "omitfirst": 3187,
      "walnuss": 3188,
      "!!": 3189,
      "05ms": 3190,
      "23": 3191,
      "2nd": 3192,
      "210": 3193,
      "290": 3194,
      "3schritta": 3195,
      "6te": 3196,
      "600": 3197,
      "7min": 3198,
      "9pt": 3199,
      "dn": 3200,
      "dk": 3201,
      "equ": 3202,
      "echo": 3203,
      "f100": 3204,
      "f200": 3205,
      "hirn": 3206,
      "ic": 3207,
      "iop": 3208,
      "m5": 3209,
      "msc": 3210,
      "m256": 3211,
      "ns": 3212,
      "on4": 3213,
      "pk": 3214,
      "pv": 3215,
      "pop": 3216,
      "pva": 3217,
      "qs": 3218,
      "righ": 3219,
      "rsf": 3220,
      "t8": 3221,
      "t7": 3222,
      "t9": 3223,
      "##idist": 3224,
      "##ru": 3225,
      "##ric": 3226,
      "##ea": 3227,
      "##lit": 3228,
      "##lag": 3229,
      "##long": 3230,
      "##ara": 3231,
      "##ass": 3232,
      "##dela": 3233,
      "##cal": 3234,
      "##230": 3235,
      "##420": 3236,
      "##t2": 3237,
      "##tiv": 3238,
      "##700": 3239,
      "##900": 3240,
      "##hb": 3241,
      "##hws": 3242,
      "##rop": 3243,
      "##resp": 3244,
      "##nativ": 3245,
      "##ole": 3246,
      "##stamm": 3247,
      "##nkm": 3248,
      "##diat": 3249,
      "##ula": 3250,
      "t2long": 3251,
      "diast": 3252,
      "km7": 3253,
      "tr12": 3254,
      "##chara": 3255,
      "th8": 3256,
      "th6": 3257,
      "prop": 3258,
      "left": 3259,
      "blood": 3260,
      "##otrop": 3261,
      "trigresp": 3262,
      "##fov230": 3263,
      "isotrop": 3264,
      "ti300": 3265,
      "bwsfov230": 3266,
      "fa16": 3267,
      "sms4": 3268,
      "cauda": 3269,
      "link": 3270,
      "15pt": 3271,
      "csf": 3272,
      "rndt2": 3273,
      "phov": 3274,
      "##proz": 3275,
      "##60so": 3276,
      "208": 3277,
      "20g": 3278,
      "pat2x2": 3279,
      "v120": 3280,
      "class": 3281,
      "fov420": 3282,
      "clavicula": 3283,
      "30avg": 3284,
      "dynkm": 3285,
      "me2d": 3286,
      "mega": 3287,
      "ti500": 3288,
      "te120": 3289,
      "slices": 3290,
      "td20": 3291,
      "td500": 3292,
      "20minp": 3293,
      "distal": 3294,
      "medic": 3295,
      "lsvc": 3296,
      "inklination": 3297,
      "pediat": 3298,
      "rfcal": 3299,
      "rfchara": 3300,
      "tf40": 3301,
      "ring0": 3302,
      "tr2000": 3303,
      "50phos": 3304,
      "sono": 3305,
      "336": 3306,
      "graddela": 3307,
      "17min": 3308,
      "bauchlag": 3309,
      "adjfrenotvolselseq": 3310,
      "systole": 3311,
      "td1300": 3312,
      "4680": 3313,
      "adaper": 3314,
      "pseudonativ": 3315,
      "dny": 3316,
      "dks": 3317,
      "equidist": 3318,
      "hirnstamm": 3319,
      "icv": 3320,
      "m512": 3321,
      "pvb": 3322,
      "poplit": 3323,
      "qsm": 3324,
      "right": 3325,
      "rsfmri": 3326,
      "tr1240": 3327,
      "##60so40": 3328,
      "classic": 3329,
      "megaws": 3330,
      "pediatric": 3331,
      "graddelay": 3332,
      "bauchlage": 3333,
      "equidistant": 3334,
      "poplitea": 3335,
      "02": 3336,
      "06": 3337,
      "002": 3338,
      "1p": 3339,
      "19": 3340,
      "1st": 3341,
      "1av": 3342,
      "192": 3343,
      "2c": 3344,
      "2av": 3345,
      "2iso": 3346,
      "2schrit": 3347,
      "2prep": 3348,
      "3bh": 3349,
      "3x1": 3350,
      "4av": 3351,
      "4slabs": 3352,
      "550": 3353,
      "6prep": 3354,
      "6hb": 3355,
      "7x": 3356,
      "932": 3357,
      "a4": 3358,
      "agar": 3359,
      "by": 3360,
      "b2000": 3361,
      "c5": 3362,
      "c6": 3363,
      "cw": 3364,
      "d1": 3365,
      "fora": 3366,
      "f400": 3367,
      "f500": 3368,
      "hig": 3369,
      "hth": 3370,
      "ide": 3371,
      "lms": 3372,
      "lab": 3373,
      "lbt": 3374,
      "mn": 3375,
      "mog": 3376,
      "mon": 3377,
      "mid": 3378,
      "mms": 3379,
      "pel": 3380,
      "rp": 3381,
      "r7": 3382,
      "r2x": 3383,
      "t6": 3384,
      "tur": 3385,
      "upp": 3386,
      "vs": 3387,
      "volume": 3388,
      "wm": 3389,
      "wws": 3390,
      "wort": 3391,
      "y2": 3392,
      "y4": 3393,
      "y3": 3394,
      "z2": 3395,
      "z4": 3396,
      "z3": 3397,
      "¤[": 3398,
      "##ix": 3399,
      "##ise": 3400,
      "##ializ": 3401,
      "##r4": 3402,
      "##rint": 3403,
      "##r10": 3404,
      "##87": 3405,
      "##oas": 3406,
      "##brea": 3407,
      "##drb": 3408,
      "##dflow": 3409,
      "##klination": 3410,
      "##single": 3411,
      "##plan": 3412,
      "##peg": 3413,
      "##upp": 3414,
      "##220": 3415,
      "##mpra": 3416,
      "##mina": 3417,
      "##fs": 3418,
      "##fal": 3419,
      "##440": 3420,
      "##win": 3421,
      "##tungen": 3422,
      "##tr4": 3423,
      "##qwin": 3424,
      "##75": 3425,
      "##yrint": 3426,
      "##hirn": 3427,
      "##se10": 3428,
      "supp": 3429,
      "sequ": 3430,
      "heat": 3431,
      "##rech": 3432,
      "##ence": 3433,
      "##el25": 3434,
      "neo": 3435,
      "##nkel25": 3436,
      "##inplan": 3437,
      "##owm": 3438,
      "##itializ": 3439,
      "##iges": 3440,
      "##dia": 3441,
      "tra1": 3442,
      "stamm": 3443,
      "direct": 3444,
      "di60so40": 3445,
      "##opo": 3446,
      "rovt": 3447,
      "avg10": 3448,
      "standardneck": 3449,
      "corkm": 3450,
      "##spiral": 3451,
      "##2dspiral": 3452,
      "radial": 3453,
      "km8": 3454,
      "km9": 3455,
      "4mml": 3456,
      "4mmkm": 3457,
      "4mmhws": 3458,
      "trse10": 3459,
      "th2": 3460,
      "th3": 3461,
      "beine": 3462,
      "sche": 3463,
      "schrit": 3464,
      "##0025": 3465,
      "shun": 3466,
      "localizers": 3467,
      "2deg": 3468,
      "msg10": 3469,
      "legs": 3470,
      "ka2": 3471,
      "ka340": 3472,
      "exor": 3473,
      "extern": 3474,
      "kidneys": 3475,
      "ti340": 3476,
      "ti440": 3477,
      "ti0025": 3478,
      "fa8": 3479,
      "mitte": 3480,
      "cava": 3481,
      "aortenk": 3482,
      "##20so": 3483,
      "rev": 3484,
      "rever": 3485,
      "reko": 3486,
      "reklination": 3487,
      "initializ": 3488,
      "##40so": 3489,
      "15mm": 3490,
      "12min": 3491,
      "mp6": 3492,
      "hypoc": 3493,
      "##mega": 3494,
      "acqwin": 3495,
      "lvot3": 3496,
      "warp100": 3497,
      "psoas": 3498,
      "mrfseq": 3499,
      "mrf2dspiral": 3500,
      "##prox": 3501,
      "20iso": 3502,
      "te200": 3503,
      "twix": 3504,
      "##winkel25": 3505,
      "64r": 3506,
      "6480": 3507,
      "conv": 3508,
      "conus": 3509,
      "v100": 3510,
      "mbhh": 3511,
      "ti130": 3512,
      "104": 3513,
      "10deg": 3514,
      "3kre": 3515,
      "##thr10": 3516,
      "obs": 3517,
      "grappa2": 3518,
      "csi3d": 3519,
      "trpdist": 3520,
      "trpprox": 3521,
      "flip6": 3522,
      "flip75": 3523,
      "flipwinkel25": 3524,
      "160fov": 3525,
      "16min": 3526,
      "scv": 3527,
      "ti220": 3528,
      "ti240": 3529,
      "ti270": 3530,
      "mdx": 3531,
      "80hz": 3532,
      "slo": 3533,
      "td100": 3534,
      "td900": 3535,
      "exp2": 3536,
      "export": 3537,
      "markerkontrolle": 3538,
      "nadelkontrolle": 3539,
      "aobogen": 3540,
      "clipkontrolle": 3541,
      "bwk4": 3542,
      "pld800": 3543,
      "pld200": 3544,
      "pld220": 3545,
      "distel": 3546,
      "medium": 3547,
      "cs4dflow": 3548,
      "70min": 3549,
      "70proz": 3550,
      "uhf1": 3551,
      "qfl3d": 3552,
      "noise": 3553,
      "##2x6": 3554,
      "lwk5": 3555,
      "##80so": 3556,
      "##80ref": 3557,
      "imfos": 3558,
      "off5": 3559,
      "off4": 3560,
      "on2": 3561,
      "180edit": 3562,
      "freebrea": 3563,
      "sonne": 3564,
      "tr16": 3565,
      "hwk4": 3566,
      "hwk6": 3567,
      "hwk7": 3568,
      "aoklappe": 3569,
      "oel2": 3570,
      "oel4": 3571,
      "oel3": 3572,
      "oel7": 3573,
      "60avg": 3574,
      "einfal": 3575,
      "bogen2": 3576,
      "ascen": 3577,
      "ciss3d": 3578,
      "t1wmpra": 3579,
      "128acq": 3580,
      "##pulse": 3581,
      "tr587": 3582,
      "fa45": 3583,
      "deltapos0": 3584,
      "deltapos2": 3585,
      "kmuhfos": 3586,
      "siemensstandardtr4": 3587,
      "2ndphase": 3588,
      "60000": 3589,
      "ns3d": 3590,
      "pvapeg": 3591,
      "06inplan": 3592,
      "1p3": 3593,
      "1stphase": 3594,
      "2schritt": 3595,
      "6preps": 3596,
      "932f": 3597,
      "cwru": 3598,
      "foramina": 3599,
      "ideal": 3600,
      "labyrint": 3601,
      "mncl": 3602,
      "mogm": 3603,
      "monopo": 3604,
      "mmsupp": 3605,
      "pelv": 3606,
      "rpowm": 3607,
      "r2x2x6": 3608,
      "turbo": 3609,
      "upper": 3610,
      "##singleshot": 3611,
      "suppr": 3612,
      "sequence": 3613,
      "heating": 3614,
      "directions": 3615,
      "avg10short": 3616,
      "schrittte": 3617,
      "shunt": 3618,
      "aortenklappe": 3619,
      "##20so80": 3620,
      "reverse": 3621,
      "initialized": 3622,
      "##40so60": 3623,
      "mrf2dspiralsingleshot": 3624,
      "6480edit": 3625,
      "noisethr10": 3626,
      "##80so20": 3627,
      "##80refoc": 3628,
      "180editpulse": 3629,
      "freebreathing": 3630,
      "einfaltungen": 3631,
      "t1wmprage": 3632,
      "06inplane": 3633,
      "labyrinth": 3634
    }
  }
}